TRT-100001-MinMaxCalibration
data: 3caa4a58
(Unnamed Layer* 0) [Convolution]_output: 3ff083dc
(Unnamed Layer* 1) [Scale]_output: 3e6f8ee6
(Unnamed Layer* 2) [Activation]_output: 3e6f8ee6
(Unnamed Layer* 3) [Pooling]_output: 3e6f8ee6
(Unnamed Layer* 4) [Convolution]_output: 3f77c975
(Unnamed Layer* 5) [Scale]_output: 3d7f1299
(Unnamed Layer* 6) [Activation]_output: 3d7f1299
(Unnamed Layer* 7) [Convolution]_output: 3fd4806d
(Unnamed Layer* 8) [Scale]_output: 3dd5725f
(Unnamed Layer* 9) [Activation]_output: 3dd5725f
(Unnamed Layer* 10) [Convolution]_output: 3edd1f61
(Unnamed Layer* 11) [Scale]_output: 3d7a208d
(Unnamed Layer* 12) [Convolution]_output: 3fa3a276
(Unnamed Layer* 13) [Scale]_output: 3e39a26a
(Unnamed Layer* 14) [ElementWise]_output: 3e330bc8
(Unnamed Layer* 15) [Activation]_output: 3e13a192
(Unnamed Layer* 16) [Convolution]_output: 3fa86527
(Unnamed Layer* 17) [Scale]_output: 3e0f32eb
(Unnamed Layer* 18) [Activation]_output: 3dee6414
(Unnamed Layer* 19) [Convolution]_output: 40a62d4a
(Unnamed Layer* 20) [Scale]_output: 3e261438
(Unnamed Layer* 21) [Activation]_output: 3e261438
(Unnamed Layer* 22) [Convolution]_output: 3ff91392
(Unnamed Layer* 23) [Scale]_output: 3e0f13d6
(Unnamed Layer* 24) [ElementWise]_output: 3e163204
(Unnamed Layer* 25) [Activation]_output: 3e163204
(Unnamed Layer* 26) [Convolution]_output: 402e30e8
(Unnamed Layer* 27) [Scale]_output: 3ded4951
(Unnamed Layer* 28) [Activation]_output: 3ded4951
(Unnamed Layer* 29) [Convolution]_output: 3f94a1da
(Unnamed Layer* 30) [Scale]_output: 3d75aa0e
(Unnamed Layer* 31) [Activation]_output: 3d75aa0e
(Unnamed Layer* 32) [Convolution]_output: 3e4f0036
(Unnamed Layer* 33) [Scale]_output: 3d61c510
(Unnamed Layer* 34) [ElementWise]_output: 3e17b39a
(Unnamed Layer* 35) [Activation]_output: 3e17b39a
(Unnamed Layer* 36) [Convolution]_output: 3fa8209b
(Unnamed Layer* 37) [Scale]_output: 3e0a0b4a
(Unnamed Layer* 38) [Activation]_output: 3d96ee59
(Unnamed Layer* 39) [Convolution]_output: 3fd6d5fd
(Unnamed Layer* 40) [Scale]_output: 3d858b6f
(Unnamed Layer* 41) [Activation]_output: 3d858b6f
(Unnamed Layer* 42) [Convolution]_output: 3ddba625
(Unnamed Layer* 43) [Scale]_output: 3d3f4f47
(Unnamed Layer* 44) [Convolution]_output: 3f35c64f
(Unnamed Layer* 45) [Scale]_output: 3d5d1296
(Unnamed Layer* 46) [ElementWise]_output: 3d6df793
(Unnamed Layer* 47) [Activation]_output: 3d6df793
(Unnamed Layer* 48) [Convolution]_output: 3f4854d8
(Unnamed Layer* 49) [Scale]_output: 3d6fe22a
(Unnamed Layer* 50) [Activation]_output: 3d6fe22a
(Unnamed Layer* 51) [Convolution]_output: 3eed33ec
(Unnamed Layer* 52) [Scale]_output: 3d150339
(Unnamed Layer* 53) [Activation]_output: 3d0b2e72
(Unnamed Layer* 54) [Convolution]_output: 3e17a4f3
(Unnamed Layer* 55) [Scale]_output: 3d3c4a88
(Unnamed Layer* 56) [ElementWise]_output: 3d6fee73
(Unnamed Layer* 57) [Activation]_output: 3d6fee73
(Unnamed Layer* 58) [Convolution]_output: 3ec5eba1
(Unnamed Layer* 59) [Scale]_output: 3d32b19a
(Unnamed Layer* 60) [Activation]_output: 3d32b19a
(Unnamed Layer* 61) [Convolution]_output: 3f5c27a2
(Unnamed Layer* 62) [Scale]_output: 3d202bf3
(Unnamed Layer* 63) [Activation]_output: 3d202bf3
(Unnamed Layer* 64) [Convolution]_output: 3e9608c5
(Unnamed Layer* 65) [Scale]_output: 3d4abbe9
(Unnamed Layer* 66) [ElementWise]_output: 3d791090
(Unnamed Layer* 67) [Activation]_output: 3d791090
(Unnamed Layer* 68) [Convolution]_output: 3f4af88c
(Unnamed Layer* 69) [Scale]_output: 3d55237c
(Unnamed Layer* 70) [Activation]_output: 3d55237c
(Unnamed Layer* 71) [Convolution]_output: 3fccb4f9
(Unnamed Layer* 72) [Scale]_output: 3d43dc42
(Unnamed Layer* 73) [Activation]_output: 3d14cdea
(Unnamed Layer* 74) [Convolution]_output: 3e6189bb
(Unnamed Layer* 75) [Scale]_output: 3d159f2f
(Unnamed Layer* 76) [ElementWise]_output: 3d7adc32
(Unnamed Layer* 77) [Activation]_output: 3d7adc32
(Unnamed Layer* 78) [Convolution]_output: 3f148208
(Unnamed Layer* 79) [Scale]_output: 3d8baa7b
(Unnamed Layer* 80) [Activation]_output: 3d2e2dea
(Unnamed Layer* 81) [Convolution]_output: 4011681c
(Unnamed Layer* 82) [Scale]_output: 3d760616
(Unnamed Layer* 83) [Activation]_output: 3d760616
(Unnamed Layer* 84) [Convolution]_output: 3e76b5d3
(Unnamed Layer* 85) [Scale]_output: 3cf45173
(Unnamed Layer* 86) [Convolution]_output: 3ec73cf4
(Unnamed Layer* 87) [Scale]_output: 3d1531d2
(Unnamed Layer* 88) [ElementWise]_output: 3d0e334f
(Unnamed Layer* 89) [Activation]_output: 3d0c2881
(Unnamed Layer* 90) [Convolution]_output: 3ebc0bc4
(Unnamed Layer* 91) [Scale]_output: 3cf226ac
(Unnamed Layer* 92) [Activation]_output: 3cf226ac
(Unnamed Layer* 93) [Convolution]_output: 3ef165e0
(Unnamed Layer* 94) [Scale]_output: 3d5cbdd9
(Unnamed Layer* 95) [Activation]_output: 3d4b46c6
(Unnamed Layer* 96) [Convolution]_output: 3e3ec0c7
(Unnamed Layer* 97) [Scale]_output: 3d2e4b6e
(Unnamed Layer* 98) [ElementWise]_output: 3d7b7ff0
(Unnamed Layer* 99) [Activation]_output: 3d7b7ff0
(Unnamed Layer* 100) [Convolution]_output: 3f7d4d19
(Unnamed Layer* 101) [Scale]_output: 3d4692ee
(Unnamed Layer* 102) [Activation]_output: 3d4692ee
(Unnamed Layer* 103) [Convolution]_output: 3f83fe08
(Unnamed Layer* 104) [Scale]_output: 3d7b8022
(Unnamed Layer* 105) [Activation]_output: 3d7b8022
(Unnamed Layer* 106) [Convolution]_output: 3e5c485f
(Unnamed Layer* 107) [Scale]_output: 3d803c9b
(Unnamed Layer* 108) [ElementWise]_output: 3d8488c8
(Unnamed Layer* 109) [Activation]_output: 3d8488c8
(Unnamed Layer* 110) [Convolution]_output: 3f5e29b5
(Unnamed Layer* 111) [Scale]_output: 3d81a450
(Unnamed Layer* 112) [Activation]_output: 3d81a450
(Unnamed Layer* 113) [Convolution]_output: 3fb51a77
(Unnamed Layer* 114) [Scale]_output: 3daad7b1
(Unnamed Layer* 115) [Activation]_output: 3da95860
(Unnamed Layer* 116) [Convolution]_output: 3e82c455
(Unnamed Layer* 117) [Scale]_output: 3db4f4c7
(Unnamed Layer* 118) [ElementWise]_output: 3db6576d
(Unnamed Layer* 119) [Activation]_output: 3db6576d
(Unnamed Layer* 120) [Convolution]_output: 3f1f2f52
(Unnamed Layer* 121) [Scale]_output: 3d874c2c
(Unnamed Layer* 122) [Activation]_output: 3d874c2c
(Unnamed Layer* 123) [Convolution]_output: 3f6179a0
(Unnamed Layer* 124) [Scale]_output: 3d8579e6
(Unnamed Layer* 125) [Activation]_output: 3d8579e6
(Unnamed Layer* 126) [Convolution]_output: 3e072e36
(Unnamed Layer* 127) [Scale]_output: 3dafe10d
(Unnamed Layer* 128) [ElementWise]_output: 3dafe10d
(Unnamed Layer* 129) [Activation]_output: 3dafe10d
(Unnamed Layer* 130) [Convolution]_output: 3f32da70
(Unnamed Layer* 131) [Scale]_output: 3d997eab
(Unnamed Layer* 132) [Activation]_output: 3d9697ca
(Unnamed Layer* 133) [Convolution]_output: 3f4294e1
(Unnamed Layer* 134) [Scale]_output: 3d39972e
(Unnamed Layer* 135) [Activation]_output: 3d2aa74c
(Unnamed Layer* 136) [Convolution]_output: 3d1b8100
(Unnamed Layer* 137) [Scale]_output: 3d6504d6
(Unnamed Layer* 138) [ElementWise]_output: 3d8172b6
(Unnamed Layer* 139) [Activation]_output: 3d8172b6
(Unnamed Layer* 140) [Convolution]_output: 3e9b8954
(Unnamed Layer* 141) [Scale]_output: 3daf5ed3
(Unnamed Layer* 142) [Activation]_output: 3d1b863d
(Unnamed Layer* 143) [Convolution]_output: 3ef49659
(Unnamed Layer* 144) [Scale]_output: 3d20f5fb
(Unnamed Layer* 145) [Activation]_output: 3d117fa2
(Unnamed Layer* 146) [Convolution]_output: 3dd84908
(Unnamed Layer* 147) [Scale]_output: 3d05ada1
(Unnamed Layer* 148) [Convolution]_output: 3e02abd6
(Unnamed Layer* 149) [Scale]_output: 3d50fc85
(Unnamed Layer* 150) [ElementWise]_output: 3d57327a
(Unnamed Layer* 151) [Activation]_output: 3d5139d4
(Unnamed Layer* 152) [Convolution]_output: 3e6c00aa
(Unnamed Layer* 153) [Scale]_output: 3d152928
(Unnamed Layer* 154) [Activation]_output: 3ca3c08a
(Unnamed Layer* 155) [Convolution]_output: 3e0f8ab7
(Unnamed Layer* 156) [Scale]_output: 3ccc1950
(Unnamed Layer* 157) [Activation]_output: 3ccc1950
(Unnamed Layer* 158) [Convolution]_output: 3c9a1f64
(Unnamed Layer* 159) [Scale]_output: 3ca0a514
(Unnamed Layer* 160) [ElementWise]_output: 3d446126
(Unnamed Layer* 161) [Activation]_output: 3d446126
(Unnamed Layer* 162) [Convolution]_output: 3deead3f
(Unnamed Layer* 163) [Scale]_output: 3d139779
(Unnamed Layer* 164) [Activation]_output: 3d139779
(Unnamed Layer* 165) [Convolution]_output: 3d416e9a
(Unnamed Layer* 166) [Scale]_output: 3d108c81
(Unnamed Layer* 167) [Activation]_output: 3d0e2d81
(Unnamed Layer* 168) [Convolution]_output: 3c453b6f
(Unnamed Layer* 169) [Scale]_output: 3d9e6792
(Unnamed Layer* 170) [ElementWise]_output: 3d9e6792
(Unnamed Layer* 171) [Activation]_output: 3d9e6792
(Unnamed Layer* 172) [Pooling]_output: 3d9e6792
(Unnamed Layer* 173) [Shuffle]_output: 3cb158ff
(Unnamed Layer* 174) [Constant]_output: 3c3ae567
(Unnamed Layer* 175) [Matrix Multiply]_output: 3e0b6e00
(Unnamed Layer* 176) [Constant]_output: 3b47d8d4
prob: 3e0acd93
